TRT-101200-EntropyCalibration2
images: 3c011222
/model.0/conv/Conv_output_0: 3f3471a4
/model.0/act/Sigmoid_output_0: 3c010a14
/model.0/act/Mul_output_0: 3eaac881
/model.1/conv/Conv_output_0: 3ec3371e
/model.1/act/Sigmoid_output_0: 3c010a14
/model.1/act/Mul_output_0: 3e80661d
/model.2/cv1/conv/Conv_output_0: 3e97d161
/model.2/cv1/act/Sigmoid_output_0: 3c010a14
/model.2/cv1/act/Mul_output_0: 3dc1b7f9
/model.2/Split_output_0: 3dc1896a
/model.2/Split_output_1: 3e115c21
/model.2/m.0/cv1/conv/Conv_output_0: 3e03c539
/model.2/m.0/cv1/act/Sigmoid_output_0: 3c00ec2f
/model.2/m.0/cv1/act/Mul_output_0: 3d663cf6
/model.2/m.0/m/m.0/cv1/conv/Conv_output_0: 3e0deb15
/model.2/m.0/m/m.0/cv1/act/Sigmoid_output_0: 3c0111eb
/model.2/m.0/m/m.0/cv1/act/Mul_output_0: 3d668337
/model.2/m.0/m/m.0/cv2/conv/Conv_output_0: 3d89024e
/model.2/m.0/m/m.0/cv2/act/Sigmoid_output_0: 3c001f46
/model.2/m.0/m/m.0/cv2/act/Mul_output_0: 3d0ffe47
/model.2/m.0/m/m.0/Add_output_0: 3da15f66
/model.2/m.0/m/m.1/cv1/conv/Conv_output_0: 3d8150b4
/model.2/m.0/m/m.1/cv1/act/Sigmoid_output_0: 3c00ac50
/model.2/m.0/m/m.1/cv1/act/Mul_output_0: 3cc22f7a
/model.2/m.0/m/m.1/cv2/conv/Conv_output_0: 3d803787
/model.2/m.0/m/m.1/cv2/act/Sigmoid_output_0: 3c00c5b4
/model.2/m.0/m/m.1/cv2/act/Mul_output_0: 3d3fb9c3
/model.2/m.0/m/m.1/Add_output_0: 3daa86a3
/model.2/m.0/cv2/conv/Conv_output_0: 3e73cbd2
/model.2/m.0/cv2/act/Sigmoid_output_0: 3c0111f7
/model.2/m.0/cv2/act/Mul_output_0: 3d43e413
/model.2/m.0/Concat_output_0: 3d92ded3
/model.2/m.0/cv3/conv/Conv_output_0: 3df05f5b
/model.2/m.0/cv3/act/Sigmoid_output_0: 3c011215
/model.2/m.0/cv3/act/Mul_output_0: 3d932128
/model.2/Concat_output_0: 3dc1b7f9
/model.2/cv2/conv/Conv_output_0: 3e0a6285
/model.2/cv2/act/Sigmoid_output_0: 3c00ce95
/model.2/cv2/act/Mul_output_0: 3d114385
/model.3/conv/Conv_output_0: 3d916c1d
/model.3/act/Sigmoid_output_0: 3c007aea
/model.3/act/Mul_output_0: 3cc17d83
/model.4/cv1/conv/Conv_output_0: 3d4db265
/model.4/cv1/act/Sigmoid_output_0: 3c00a6d4
/model.4/cv1/act/Mul_output_0: 3cd13e73
/model.4/Split_output_0: 3cd13e73
/model.4/Split_output_1: 3c99ba65
/model.4/m.0/cv1/conv/Conv_output_0: 3ceee951
/model.4/m.0/cv1/act/Sigmoid_output_0: 3bf48cb1
/model.4/m.0/cv1/act/Mul_output_0: 3c800f90
/model.4/m.0/m/m.0/cv1/conv/Conv_output_0: 3d246049
/model.4/m.0/m/m.0/cv1/act/Sigmoid_output_0: 3bfc9e1d
/model.4/m.0/m/m.0/cv1/act/Mul_output_0: 3c523dad
/model.4/m.0/m/m.0/cv2/conv/Conv_output_0: 3ce79093
/model.4/m.0/m/m.0/cv2/act/Sigmoid_output_0: 3bed790b
/model.4/m.0/m/m.0/cv2/act/Mul_output_0: 3c72982d
/model.4/m.0/m/m.0/Add_output_0: 3cdb3b35
/model.4/m.0/m/m.1/cv1/conv/Conv_output_0: 3d0bfebc
/model.4/m.0/m/m.1/cv1/act/Sigmoid_output_0: 3bfb00f0
/model.4/m.0/m/m.1/cv1/act/Mul_output_0: 3c14b326
/model.4/m.0/m/m.1/cv2/conv/Conv_output_0: 3d26ed1b
/model.4/m.0/m/m.1/cv2/act/Sigmoid_output_0: 3bffe9e7
/model.4/m.0/m/m.1/cv2/act/Mul_output_0: 3d10cfa4
/model.4/m.0/m/m.1/Add_output_0: 3d649f3c
/model.4/m.0/cv2/conv/Conv_output_0: 3d584e4c
/model.4/m.0/cv2/act/Sigmoid_output_0: 3c004a2e
/model.4/m.0/cv2/act/Mul_output_0: 3cd45bfa
/model.4/m.0/Concat_output_0: 3d27a7f9
/model.4/m.0/cv3/conv/Conv_output_0: 3d2699e1
/model.4/m.0/cv3/act/Sigmoid_output_0: 3bfdd7fe
/model.4/m.0/cv3/act/Mul_output_0: 3c875e04
/model.4/Concat_output_0: 3cd13e73
/model.4/cv2/conv/Conv_output_0: 3d5846de
/model.4/cv2/act/Sigmoid_output_0: 3c00371a
/model.4/cv2/act/Mul_output_0: 3ca6e45f
/model.5/conv/Conv_output_0: 3d52c89b
/model.5/act/Sigmoid_output_0: 3c00a02a
/model.5/act/Mul_output_0: 3cffc006
/model.6/cv1/conv/Conv_output_0: 3d4df9b8
/model.6/cv1/act/Sigmoid_output_0: 3bfeda9e
/model.6/cv1/act/Mul_output_0: 3cb174b4
/model.6/Split_output_0: 3cd18a9e
/model.6/Split_output_1: 3c7241ab
/model.6/m.0/cv1/conv/Conv_output_0: 3cac26e4
/model.6/m.0/cv1/act/Sigmoid_output_0: 3beecfcf
/model.6/m.0/cv1/act/Mul_output_0: 3c65f506
/model.6/m.0/m/m.0/cv1/conv/Conv_output_0: 3d02cdd1
/model.6/m.0/m/m.0/cv1/act/Sigmoid_output_0: 3bfa3a0c
/model.6/m.0/m/m.0/cv1/act/Mul_output_0: 3bca7eec
/model.6/m.0/m/m.0/cv2/conv/Conv_output_0: 3cb35634
/model.6/m.0/m/m.0/cv2/act/Sigmoid_output_0: 3bd9b09b
/model.6/m.0/m/m.0/cv2/act/Mul_output_0: 3c104537
/model.6/m.0/m/m.0/Add_output_0: 3ca445df
/model.6/m.0/m/m.1/cv1/conv/Conv_output_0: 3d02e201
/model.6/m.0/m/m.1/cv1/act/Sigmoid_output_0: 3be1b682
/model.6/m.0/m/m.1/cv1/act/Mul_output_0: 3bf34f9e
/model.6/m.0/m/m.1/cv2/conv/Conv_output_0: 3d19372f
/model.6/m.0/m/m.1/cv2/act/Sigmoid_output_0: 3bff0e72
/model.6/m.0/m/m.1/cv2/act/Mul_output_0: 3ce86fee
/model.6/m.0/m/m.1/Add_output_0: 3d336235
/model.6/m.0/cv2/conv/Conv_output_0: 3d1156b4
/model.6/m.0/cv2/act/Sigmoid_output_0: 3bfe6a63
/model.6/m.0/cv2/act/Mul_output_0: 3cc19616
/model.6/m.0/Concat_output_0: 3d1122a7
/model.6/m.0/cv3/conv/Conv_output_0: 3cfedb5f
/model.6/m.0/cv3/act/Sigmoid_output_0: 3bfa120e
/model.6/m.0/cv3/act/Mul_output_0: 3c9aa463
/model.6/Concat_output_0: 3cb174b4
/model.6/cv2/conv/Conv_output_0: 3d59bbe6
/model.6/cv2/act/Sigmoid_output_0: 3c002854
/model.6/cv2/act/Mul_output_0: 3c9af66e
/model.7/conv/Conv_output_0: 3d09aa2c
/model.7/act/Sigmoid_output_0: 3bfa8892
/model.7/act/Mul_output_0: 3c73b942
/model.8/cv1/conv/Conv_output_0: 3d10deab
/model.8/cv1/act/Sigmoid_output_0: 3bfeefd3
/model.8/cv1/act/Mul_output_0: 3ca61e6b
/model.8/Split_output_0: 3cc1eaaa
/model.8/Split_output_1: 3c66e120
/model.8/m.0/cv1/conv/Conv_output_0: 3cae6c3a
/model.8/m.0/cv1/act/Sigmoid_output_0: 3bf1c9b3
/model.8/m.0/cv1/act/Mul_output_0: 3c90539b
/model.8/m.0/m/m.0/cv1/conv/Conv_output_0: 3d11aa01
/model.8/m.0/m/m.0/cv1/act/Sigmoid_output_0: 3bfeb949
/model.8/m.0/m/m.0/cv1/act/Mul_output_0: 3c739fb7
/model.8/m.0/m/m.0/cv2/conv/Conv_output_0: 3d57ffae
/model.8/m.0/m/m.0/cv2/act/Sigmoid_output_0: 3c02ce52
/model.8/m.0/m/m.0/cv2/act/Mul_output_0: 3c9b6b92
/model.8/m.0/m/m.0/Add_output_0: 3d50dcda
/model.8/m.0/m/m.1/cv1/conv/Conv_output_0: 3d043772
/model.8/m.0/m/m.1/cv1/act/Sigmoid_output_0: 3bfefb90
/model.8/m.0/m/m.1/cv1/act/Mul_output_0: 3c7333f2
/model.8/m.0/m/m.1/cv2/conv/Conv_output_0: 3d925752
/model.8/m.0/m/m.1/cv2/act/Sigmoid_output_0: 3bff5428
/model.8/m.0/m/m.1/cv2/act/Mul_output_0: 3d24ecb5
/model.8/m.0/m/m.1/Add_output_0: 3d97b9c3
/model.8/m.0/cv2/conv/Conv_output_0: 3cbabb2a
/model.8/m.0/cv2/act/Sigmoid_output_0: 3bdfed0c
/model.8/m.0/cv2/act/Mul_output_0: 3c312fe0
/model.8/m.0/Concat_output_0: 3d926426
/model.8/m.0/cv3/conv/Conv_output_0: 3d1995dd
/model.8/m.0/cv3/act/Sigmoid_output_0: 3c00c823
/model.8/m.0/cv3/act/Mul_output_0: 3ce74574
/model.8/Concat_output_0: 3c90ab86
/model.8/cv2/conv/Conv_output_0: 3d79d97d
/model.8/cv2/act/Sigmoid_output_0: 3c01e63a
/model.8/cv2/act/Mul_output_0: 3ce87149
/model.9/cv1/conv/Conv_output_0: 3d82b85f
/model.9/cv1/act/Sigmoid_output_0: 3bff46eb
/model.9/cv1/act/Mul_output_0: 3d8bc539
/model.9/m/MaxPool_output_0: 3d8bc539
/model.9/m_1/MaxPool_output_0: 3d8bc539
/model.9/m_2/MaxPool_output_0: 3d8bc539
/model.9/Concat_output_0: 3d8bc539
/model.9/cv2/conv/Conv_output_0: 3d9078bd
/model.9/cv2/act/Sigmoid_output_0: 3c00f7a1
/model.9/cv2/act/Mul_output_0: 3d281c28
/model.10/cv1/conv/Conv_output_0: 3db5c163
/model.10/cv1/act/Sigmoid_output_0: 3c010c27
/model.10/cv1/act/Mul_output_0: 3d44ba94
/model.10/Split_output_0: 3d262848
/model.10/Split_output_1: 3d6c0c27
/model.10/m/m.0/attn/qkv/conv/Conv_output_0: 3db53052
/model.10/m/m.0/attn/Reshape_output_0: 3db53052
/model.10/m/m.0/attn/Split_output_0: 3d801b8f
/model.10/m/m.0/attn/Split_output_1: 3dbf49e5
/model.10/m/m.0/attn/Split_output_2: 3d3be081
/model.10/m/m.0/attn/Transpose_output_0: 3d801b8f
/model.10/m/m.0/attn/MatMul_output_0: 3f89b188
/model.10/m/m.0/attn/Constant_1_output_0_output: 3ab67d3d
ONNXTRT_Broadcast_output: 3ab67d3d
/model.10/m/m.0/attn/Mul_output_0: 3e42ba5d
ONNXTRT_flattenTensor_output: 3e42ba5d
/model.10/m/m.0/attn/Softmax_output: 39ac99f7
/model.10/m/m.0/attn/Softmax_output_0: 39ac99f7
/model.10/m/m.0/attn/Transpose_1_output_0: 39ac99f7
/model.10/m/m.0/attn/MatMul_1_output_0: 3d1550b7
/model.10/m/m.0/attn/Reshape_1_output_0: 3d1550b7
/model.10/m/m.0/attn/Reshape_2_output_0: 3d3be081
/model.10/m/m.0/attn/pe/conv/Conv_output_0: 3d13ced3
/model.10/m/m.0/attn/Add_output_0: 3d20ccc2
/model.10/m/m.0/attn/proj/conv/Conv_output_0: 3d3720bd
/model.10/m/m.0/Add_output_0: 3dd302ba
/model.10/m/m.0/ffn/ffn.0/conv/Conv_output_0: 3d556a7b
/model.10/m/m.0/ffn/ffn.0/act/Sigmoid_output_0: 3bffa9ab
/model.10/m/m.0/ffn/ffn.0/act/Mul_output_0: 3d01bb82
/model.10/m/m.0/ffn/ffn.1/conv/Conv_output_0: 3d172d35
/model.10/m/m.0/Add_1_output_0: 3dc6ef71
/model.10/Concat_output_0: 3d694277
/model.10/cv2/conv/Conv_output_0: 3d8180af
/model.10/cv2/act/Sigmoid_output_0: 3bfc1e5d
/model.10/cv2/act/Mul_output_0: 3cc15405
/model.11/Resize_output_0: 3cc15405
/model.12/Concat_output_0: 3cc1945a
/model.13/cv1/conv/Conv_output_0: 3d5731ad
/model.13/cv1/act/Sigmoid_output_0: 3bfea593
/model.13/cv1/act/Mul_output_0: 3cb192d5
/model.13/Split_output_0: 3cd1ce4f
/model.13/Split_output_1: 3c90e29c
/model.13/m.0/cv1/conv/Conv_output_0: 3d02950a
/model.13/m.0/cv1/act/Sigmoid_output_0: 3beb1b9f
/model.13/m.0/cv1/act/Mul_output_0: 3c67036f
/model.13/m.0/m/m.0/cv1/conv/Conv_output_0: 3d384c52
/model.13/m.0/m/m.0/cv1/act/Sigmoid_output_0: 3bf86fec
/model.13/m.0/m/m.0/cv1/act/Mul_output_0: 3c80e3c7
/model.13/m.0/m/m.0/cv2/conv/Conv_output_0: 3d09e9d5
/model.13/m.0/m/m.0/cv2/act/Sigmoid_output_0: 3bfe21c9
/model.13/m.0/m/m.0/cv2/act/Mul_output_0: 3cb311b7
/model.13/m.0/m/m.0/Add_output_0: 3cdb46ae
/model.13/m.0/m/m.1/cv1/conv/Conv_output_0: 3cf772db
/model.13/m.0/m/m.1/cv1/act/Sigmoid_output_0: 3bef025e
/model.13/m.0/m/m.1/cv1/act/Mul_output_0: 3c2b050b
/model.13/m.0/m/m.1/cv2/conv/Conv_output_0: 3d29a3d9
/model.13/m.0/m/m.1/cv2/act/Sigmoid_output_0: 3bfedd7e
/model.13/m.0/m/m.1/cv2/act/Mul_output_0: 3d0fd89c
/model.13/m.0/m/m.1/Add_output_0: 3d49a7b1
/model.13/m.0/cv2/conv/Conv_output_0: 3d474a75
/model.13/m.0/cv2/act/Sigmoid_output_0: 3bffb5be
/model.13/m.0/cv2/act/Mul_output_0: 3c903a35
/model.13/m.0/Concat_output_0: 3d117948
/model.13/m.0/cv3/conv/Conv_output_0: 3d1df8d5
/model.13/m.0/cv3/act/Sigmoid_output_0: 3bfbfc31
/model.13/m.0/cv3/act/Mul_output_0: 3c72c58e
/model.13/Concat_output_0: 3cb192d5
/model.13/cv2/conv/Conv_output_0: 3d666a4d
/model.13/cv2/act/Sigmoid_output_0: 3c0074f5
/model.13/cv2/act/Mul_output_0: 3c686dd9
/model.14/Resize_output_0: 3c686dd9
/model.15/Concat_output_0: 3ca6e45f
/model.16/cv1/conv/Conv_output_0: 3d1dbcf5
/model.16/cv1/act/Sigmoid_output_0: 3bfe7380
/model.16/cv1/act/Mul_output_0: 3c80ee13
/model.16/Split_output_0: 3c9a418f
/model.16/Split_output_1: 3c80ee13
/model.16/m.0/cv1/conv/Conv_output_0: 3ce5a60f
/model.16/m.0/cv1/act/Sigmoid_output_0: 3bced680
/model.16/m.0/cv1/act/Mul_output_0: 3c03d5c1
/model.16/m.0/m/m.0/cv1/conv/Conv_output_0: 3d1dd253
/model.16/m.0/m/m.0/cv1/act/Sigmoid_output_0: 3bff952b
/model.16/m.0/m/m.0/cv1/act/Mul_output_0: 3c5158c3
/model.16/m.0/m/m.0/cv2/conv/Conv_output_0: 3d2dc4fd
/model.16/m.0/m/m.0/cv2/act/Sigmoid_output_0: 3bff775a
/model.16/m.0/m/m.0/cv2/act/Mul_output_0: 3c518e89
/model.16/m.0/m/m.0/Add_output_0: 3d06ddc7
/model.16/m.0/m/m.1/cv1/conv/Conv_output_0: 3d1645f2
/model.16/m.0/m/m.1/cv1/act/Sigmoid_output_0: 3bf9b0ac
/model.16/m.0/m/m.1/cv1/act/Mul_output_0: 3ca67b87
/model.16/m.0/m/m.1/cv2/conv/Conv_output_0: 3daa2d30
/model.16/m.0/m/m.1/cv2/act/Sigmoid_output_0: 3c011192
/model.16/m.0/m/m.1/cv2/act/Mul_output_0: 3d3f7fcf
/model.16/m.0/m/m.1/Add_output_0: 3d9cdf0c
/model.16/m.0/cv2/conv/Conv_output_0: 3d8d8bc7
/model.16/m.0/cv2/act/Sigmoid_output_0: 3c006988
/model.16/m.0/cv2/act/Mul_output_0: 3ce79934
/model.16/m.0/Concat_output_0: 3d4465b3
/model.16/m.0/cv3/conv/Conv_output_0: 3d3d0cd8
/model.16/m.0/cv3/act/Sigmoid_output_0: 3c00c214
/model.16/m.0/cv3/act/Mul_output_0: 3c88c2d0
/model.16/Concat_output_0: 3c88c2d0
/model.16/cv2/conv/Conv_output_0: 3d25c867
/model.16/cv2/act/Sigmoid_output_0: 3bf9772a
/model.16/cv2/act/Mul_output_0: 3c41792c
/model.17/conv/Conv_output_0: 3d48b292
/model.17/act/Sigmoid_output_0: 3c00e52e
/model.17/act/Mul_output_0: 3c92c882
/model.18/Concat_output_0: 3c92c882
/model.19/cv1/conv/Conv_output_0: 3d9982c8
/model.19/cv1/act/Sigmoid_output_0: 3c011221
/model.19/cv1/act/Mul_output_0: 3cab7b28
/model.19/Split_output_0: 3c99d4b5
/model.19/Split_output_1: 3c96cf34
/model.19/m.0/cv1/conv/Conv_output_0: 3d09256f
/model.19/m.0/cv1/act/Sigmoid_output_0: 3c036714
/model.19/m.0/cv1/act/Mul_output_0: 3c7291da
/model.19/m.0/m/m.0/cv1/conv/Conv_output_0: 3d8b4d5a
/model.19/m.0/m/m.0/cv1/act/Sigmoid_output_0: 3c010e55
/model.19/m.0/m/m.0/cv1/act/Mul_output_0: 3c9c34bd
/model.19/m.0/m/m.0/cv2/conv/Conv_output_0: 3d5ef64d
/model.19/m.0/m/m.0/cv2/act/Sigmoid_output_0: 3c010cf9
/model.19/m.0/m/m.0/cv2/act/Mul_output_0: 3cc1d679
/model.19/m.0/m/m.0/Add_output_0: 3d251f5f
/model.19/m.0/m/m.1/cv1/conv/Conv_output_0: 3d54bfef
/model.19/m.0/m/m.1/cv1/act/Sigmoid_output_0: 3c013e36
/model.19/m.0/m/m.1/cv1/act/Mul_output_0: 3c921137
/model.19/m.0/m/m.1/cv2/conv/Conv_output_0: 3d945c5f
/model.19/m.0/m/m.1/cv2/act/Sigmoid_output_0: 3c01109c
/model.19/m.0/m/m.1/cv2/act/Mul_output_0: 3d4280d5
/model.19/m.0/m/m.1/Add_output_0: 3daa158f
/model.19/m.0/cv2/conv/Conv_output_0: 3da6fe5a
/model.19/m.0/cv2/act/Sigmoid_output_0: 3c00d9b3
/model.19/m.0/cv2/act/Mul_output_0: 3d391926
/model.19/m.0/Concat_output_0: 3dbc8402
/model.19/m.0/cv3/conv/Conv_output_0: 3d8e74ce
/model.19/m.0/cv3/act/Sigmoid_output_0: 3c010e20
/model.19/m.0/cv3/act/Mul_output_0: 3cd37266
/model.19/Concat_output_0: 3cab7b28
/model.19/cv2/conv/Conv_output_0: 3d90802b
/model.19/cv2/act/Sigmoid_output_0: 3c011214
/model.19/cv2/act/Mul_output_0: 3d12438c
/model.20/conv/Conv_output_0: 3d644f21
/model.20/act/Sigmoid_output_0: 3c00d89a
/model.20/act/Mul_output_0: 3ca50884
/model.21/Concat_output_0: 3ca50884
/model.22/cv1/conv/Conv_output_0: 3d7dfe5e
/model.22/cv1/act/Sigmoid_output_0: 3c030bfb
/model.22/cv1/act/Mul_output_0: 3ce9e4d9
/model.22/Split_output_0: 3cc0a1b1
/model.22/Split_output_1: 3d130b68
/model.22/m.0/cv1/conv/Conv_output_0: 3d1a2125
/model.22/m.0/cv1/act/Sigmoid_output_0: 3bfc3092
/model.22/m.0/cv1/act/Mul_output_0: 3cb14d5f
/model.22/m.0/m/m.0/cv1/conv/Conv_output_0: 3d4fb6f5
/model.22/m.0/m/m.0/cv1/act/Sigmoid_output_0: 3c007902
/model.22/m.0/m/m.0/cv1/act/Mul_output_0: 3c8ffae1
/model.22/m.0/m/m.0/cv2/conv/Conv_output_0: 3d2ba478
/model.22/m.0/m/m.0/cv2/act/Sigmoid_output_0: 3bffde32
/model.22/m.0/m/m.0/cv2/act/Mul_output_0: 3cd12661
/model.22/m.0/m/m.0/Add_output_0: 3d247ba9
/model.22/m.0/m/m.1/cv1/conv/Conv_output_0: 3d2be3ef
/model.22/m.0/m/m.1/cv1/act/Sigmoid_output_0: 3c001e86
/model.22/m.0/m/m.1/cv1/act/Mul_output_0: 3c9b88af
/model.22/m.0/m/m.1/cv2/conv/Conv_output_0: 3d968666
/model.22/m.0/m/m.1/cv2/act/Sigmoid_output_0: 3c010f2c
/model.22/m.0/m/m.1/cv2/act/Mul_output_0: 3d422cda
/model.22/m.0/m/m.1/Add_output_0: 3d97d743
/model.22/m.0/cv2/conv/Conv_output_0: 3d4937f7
/model.22/m.0/cv2/act/Sigmoid_output_0: 3c00792c
/model.22/m.0/cv2/act/Mul_output_0: 3cb364ae
/model.22/m.0/Concat_output_0: 3d6ce74e
/model.22/m.0/cv3/conv/Conv_output_0: 3d87803f
/model.22/m.0/cv3/act/Sigmoid_output_0: 3c010aef
/model.22/m.0/cv3/act/Mul_output_0: 3d25021e
/model.22/Concat_output_0: 3cc07ccf
/model.22/cv2/conv/Conv_output_0: 3d8e0f5b
/model.22/cv2/act/Sigmoid_output_0: 3c00edae
/model.22/cv2/act/Mul_output_0: 3d256bd3
/model.23/cv2.0/cv2.0.0/conv/Conv_output_0: 3d48980b
/model.23/cv2.0/cv2.0.0/act/Sigmoid_output_0: 3c002a5d
/model.23/cv2.0/cv2.0.0/act/Mul_output_0: 3cc2673b
/model.23/cv2.0/cv2.0.1/conv/Conv_output_0: 3e2a05b7
/model.23/cv2.0/cv2.0.1/act/Sigmoid_output_0: 3c010a14
/model.23/cv2.0/cv2.0.1/act/Mul_output_0: 3dc344b0
/model.23/cv2.0/cv2.0.2/Conv_output_0: 3da43fe0
/model.23/cv3.0/cv3.0.0/cv3.0.0.0/conv/Conv_output_0: 3ced2763
/model.23/cv3.0/cv3.0.0/cv3.0.0.0/act/Sigmoid_output_0: 3bfe3575
/model.23/cv3.0/cv3.0.0/cv3.0.0.0/act/Mul_output_0: 3cd410d1
/model.23/cv3.0/cv3.0.0/cv3.0.0.1/conv/Conv_output_0: 3d25b33a
/model.23/cv3.0/cv3.0.0/cv3.0.0.1/act/Sigmoid_output_0: 3bfe46b3
/model.23/cv3.0/cv3.0.0/cv3.0.0.1/act/Mul_output_0: 3cb13b1a
/model.23/cv3.0/cv3.0.1/cv3.0.1.0/conv/Conv_output_0: 3d4facab
/model.23/cv3.0/cv3.0.1/cv3.0.1.0/act/Sigmoid_output_0: 3c038731
/model.23/cv3.0/cv3.0.1/cv3.0.1.0/act/Mul_output_0: 3cff19f1
/model.23/cv3.0/cv3.0.1/cv3.0.1.1/conv/Conv_output_0: 3dce7a19
/model.23/cv3.0/cv3.0.1/cv3.0.1.1/act/Sigmoid_output_0: 3c00f1d9
/model.23/cv3.0/cv3.0.1/cv3.0.1.1/act/Mul_output_0: 3d6f8694
/model.23/cv3.0/cv3.0.2/Conv_output_0: 3e1088e3
/model.23/Concat_output_0: 3e0f651c
/model.23/cv2.1/cv2.1.0/conv/Conv_output_0: 3d67bd29
/model.23/cv2.1/cv2.1.0/act/Sigmoid_output_0: 3c00d760
/model.23/cv2.1/cv2.1.0/act/Mul_output_0: 3d441e79
/model.23/cv2.1/cv2.1.1/conv/Conv_output_0: 3e56a0c4
/model.23/cv2.1/cv2.1.1/act/Sigmoid_output_0: 3c010a14
/model.23/cv2.1/cv2.1.1/act/Mul_output_0: 3e169017
/model.23/cv2.1/cv2.1.2/Conv_output_0: 3da6f7e1
/model.23/cv3.1/cv3.1.0/cv3.1.0.0/conv/Conv_output_0: 3d4c1e85
/model.23/cv3.1/cv3.1.0/cv3.1.0.0/act/Sigmoid_output_0: 3c034539
/model.23/cv3.1/cv3.1.0/cv3.1.0.0/act/Mul_output_0: 3d24df76
/model.23/cv3.1/cv3.1.0/cv3.1.0.1/conv/Conv_output_0: 3d56c7e8
/model.23/cv3.1/cv3.1.0/cv3.1.0.1/act/Sigmoid_output_0: 3c00c37d
/model.23/cv3.1/cv3.1.0/cv3.1.0.1/act/Mul_output_0: 3d2522c4
/model.23/cv3.1/cv3.1.1/cv3.1.1.0/conv/Conv_output_0: 3d897b76
/model.23/cv3.1/cv3.1.1/cv3.1.1.0/act/Sigmoid_output_0: 3c1028e0
/model.23/cv3.1/cv3.1.1/cv3.1.1.0/act/Mul_output_0: 3d25cf80
/model.23/cv3.1/cv3.1.1/cv3.1.1.1/conv/Conv_output_0: 3dced0a7
/model.23/cv3.1/cv3.1.1/cv3.1.1.1/act/Sigmoid_output_0: 3c00e332
/model.23/cv3.1/cv3.1.1/cv3.1.1.1/act/Mul_output_0: 3d3fcc94
/model.23/cv3.1/cv3.1.2/Conv_output_0: 3e117964
/model.23/Concat_1_output_0: 3dfb591d
/model.23/cv2.2/cv2.2.0/conv/Conv_output_0: 3d73bb14
/model.23/cv2.2/cv2.2.0/act/Sigmoid_output_0: 3c02fe56
/model.23/cv2.2/cv2.2.0/act/Mul_output_0: 3d69bf34
/model.23/cv2.2/cv2.2.1/conv/Conv_output_0: 3e7ac0fd
/model.23/cv2.2/cv2.2.1/act/Sigmoid_output_0: 3c010a14
/model.23/cv2.2/cv2.2.1/act/Mul_output_0: 3e8b651d
/model.23/cv2.2/cv2.2.2/Conv_output_0: 3daadbb2
/model.23/cv3.2/cv3.2.0/cv3.2.0.0/conv/Conv_output_0: 3d76d9fd
/model.23/cv3.2/cv3.2.0/cv3.2.0.0/act/Sigmoid_output_0: 3c029b79
/model.23/cv3.2/cv3.2.0/cv3.2.0.0/act/Mul_output_0: 3d617ea8
/model.23/cv3.2/cv3.2.0/cv3.2.0.1/conv/Conv_output_0: 3d1ea66a
/model.23/cv3.2/cv3.2.0/cv3.2.0.1/act/Sigmoid_output_0: 3bfeaa5f
/model.23/cv3.2/cv3.2.0/cv3.2.0.1/act/Mul_output_0: 3ce9481d
/model.23/cv3.2/cv3.2.1/cv3.2.1.0/conv/Conv_output_0: 3d6192b9
/model.23/cv3.2/cv3.2.1/cv3.2.1.0/act/Sigmoid_output_0: 3c03e239
/model.23/cv3.2/cv3.2.1/cv3.2.1.0/act/Mul_output_0: 3d40946a
/model.23/cv3.2/cv3.2.1/cv3.2.1.1/conv/Conv_output_0: 3d836075
/model.23/cv3.2/cv3.2.1/cv3.2.1.1/act/Sigmoid_output_0: 3c009514
/model.23/cv3.2/cv3.2.1/cv3.2.1.1/act/Mul_output_0: 3d42411f
/model.23/cv3.2/cv3.2.2/Conv_output_0: 3e322ab9
/model.23/Concat_2_output_0: 3e2b85a0
/model.23/Reshape_output_0: 3e0f651c
/model.23/Reshape_1_output_0: 3dfb591d
/model.23/Reshape_2_output_0: 3e2b85a0
/model.23/Concat_3_output_0: 3e11f065
/model.23/Split_output_0: 3da58062
/model.23/Split_output_1: 3e28dd2f
/model.23/dfl/Reshape_output_0: 3da58062
/model.23/dfl/Transpose_output_0: 3da58062
ONNXTRT_flattenTensor_44_output: 3da58062
/model.23/dfl/Softmax_output: 3ba16ec5
/model.23/dfl/Softmax_output_0: 3ba16ec5
/model.23/dfl/Transpose_1_output_0: 3ba16ec5
/model.23/dfl/conv/Conv_output_0: 3dd2f836
/model.23/dfl/Reshape_1_output_0: 3dd2f836
/model.23/Constant_10_output_0_output: 3f204a85
ONNXTRT_Broadcast_110_output: 3c810a14
/model.23/Slice_1_output_0: 3ddbf5a0
/model.23/Add_2_output_0: 3fa386af
/model.23/Mul_2_output_0: 409f4e9d
/model.23/Sigmoid_output_0: 37954063
/model.23/Constant_11_output_0_output: 3c810a14
/model.23/Sub_output_0: 3f1c4d7d
/model.23/Slice_output_0: 3dca63cd
output0: 409f4e9d
/model.23/Add_1_output_0: 3f220073
/model.23/Concat_4_output_0: 3f1eae9a
/model.23/Constant_12_output_0_output: 3e810a14
/model.23/Constant_9_output_0_output: 3f204a85
/model.23/Div_1_output_0: 3f2386af
ONNXTRT_Broadcast_112_output: 3e810a14
/model.23/Sub_1_output_0: 3e4db7ef
